#ifndef FIRE_LOGISTIC_INT8_H
#define FIRE_LOGISTIC_INT8_H

// fire_logistic_int8.tflite - 2136 bytes
const unsigned int fire_logistic_int8_len = 2136;
const unsigned char fire_logistic_int8[] = {
  28, 0, 0, 0, 84, 70, 76, 51, 20, 0, 32, 0,
  28, 0, 24, 0, 20, 0, 16, 0, 12, 0, 0, 0,
  8, 0, 4, 0, 20, 0, 0, 0, 28, 0, 0, 0,
  132, 0, 0, 0, 220, 0, 0, 0, 244, 1, 0, 0,
  4, 2, 0, 0, 196, 7, 0, 0, 3, 0, 0, 0,
  1, 0, 0, 0, 4, 0, 0, 0, 190, 253, 255, 255,
  12, 0, 0, 0, 28, 0, 0, 0, 60, 0, 0, 0,
  15, 0, 0, 0, 115, 101, 114, 118, 105, 110, 103, 95,
  100, 101, 102, 97, 117, 108, 116, 0, 1, 0, 0, 0,
  4, 0, 0, 0, 152, 255, 255, 255, 8, 0, 0, 0,
  4, 0, 0, 0, 8, 0, 0, 0, 111, 117, 116, 112,
  117, 116, 95, 48, 0, 0, 0, 0, 1, 0, 0, 0,
  4, 0, 0, 0, 146, 254, 255, 255, 4, 0, 0, 0,
  5, 0, 0, 0, 105, 110, 112, 117, 116, 0, 0, 0,
  2, 0, 0, 0, 52, 0, 0, 0, 4, 0, 0, 0,
  220, 255, 255, 255, 11, 0, 0, 0, 4, 0, 0, 0,
  19, 0, 0, 0, 67, 79, 78, 86, 69, 82, 83, 73,
  79, 78, 95, 77, 69, 84, 65, 68, 65, 84, 65, 0,
  8, 0, 12, 0, 8, 0, 4, 0, 8, 0, 0, 0,
  10, 0, 0, 0, 4, 0, 0, 0, 19, 0, 0, 0,
  109, 105, 110, 95, 114, 117, 110, 116, 105, 109, 101, 95,
  118, 101, 114, 115, 105, 111, 110, 0, 12, 0, 0, 0,
  20, 1, 0, 0, 12, 1, 0, 0, 248, 0, 0, 0,
  220, 0, 0, 0, 200, 0, 0, 0, 180, 0, 0, 0,
  172, 0, 0, 0, 164, 0, 0, 0, 156, 0, 0, 0,
  148, 0, 0, 0, 116, 0, 0, 0, 4, 0, 0, 0,
  54, 255, 255, 255, 4, 0, 0, 0, 96, 0, 0, 0,
  12, 0, 0, 0, 8, 0, 14, 0, 8, 0, 4, 0,
  8, 0, 0, 0, 16, 0, 0, 0, 40, 0, 0, 0,
  0, 0, 6, 0, 8, 0, 4, 0, 6, 0, 0, 0,
  4, 0, 0, 0, 1, 0, 0, 0, 235, 3, 0, 0,
  12, 0, 24, 0, 20, 0, 16, 0, 12, 0, 4, 0,
  12, 0, 0, 0, 66, 81, 4, 14, 188, 72, 224, 36,
  2, 0, 0, 0, 2, 0, 0, 0, 4, 0, 0, 0,
  6, 0, 0, 0, 50, 46, 50, 48, 46, 48, 0, 0,
  162, 255, 255, 255, 4, 0, 0, 0, 16, 0, 0, 0,
  49, 46, 49, 52, 46, 48, 0, 0, 0, 0, 0, 0,
  0, 0, 0, 0, 120, 254, 255, 255, 124, 254, 255, 255,
  128, 254, 255, 255, 132, 254, 255, 255, 206, 255, 255, 255,
  4, 0, 0, 0, 4, 0, 0, 0, 129, 134, 221, 127,
  222, 255, 255, 255, 4, 0, 0, 0, 4, 0, 0, 0,
  59, 127, 131, 129, 238, 255, 255, 255, 4, 0, 0, 0,
  4, 0, 0, 0, 17, 129, 50, 168, 0, 0, 6, 0,
  8, 0, 4, 0, 6, 0, 0, 0, 4, 0, 0, 0,
  4, 0, 0, 0, 231, 218, 255, 255, 208, 254, 255, 255,
  212, 254, 255, 255, 15, 0, 0, 0, 77, 76, 73, 82,
  32, 67, 111, 110, 118, 101, 114, 116, 101, 100, 46, 0,
  1, 0, 0, 0, 20, 0, 0, 0, 0, 0, 14, 0,
  24, 0, 20, 0, 16, 0, 12, 0, 8, 0, 4, 0,
  14, 0, 0, 0, 20, 0, 0, 0, 28, 0, 0, 0,
  12, 1, 0, 0, 16, 1, 0, 0, 20, 1, 0, 0,
  4, 0, 0, 0, 109, 97, 105, 110, 0, 0, 0, 0,
  4, 0, 0, 0, 192, 0, 0, 0, 124, 0, 0, 0,
  52, 0, 0, 0, 16, 0, 0, 0, 0, 0, 10, 0,
  16, 0, 12, 0, 8, 0, 4, 0, 10, 0, 0, 0,
  12, 0, 0, 0, 16, 0, 0, 0, 3, 0, 0, 0,
  1, 0, 0, 0, 8, 0, 0, 0, 1, 0, 0, 0,
  7, 0, 0, 0, 202, 255, 255, 255, 20, 0, 0, 0,
  0, 0, 0, 8, 16, 0, 0, 0, 20, 0, 0, 0,
  2, 0, 0, 0, 128, 255, 255, 255, 1, 0, 0, 0,
  7, 0, 0, 0, 3, 0, 0, 0, 6, 0, 0, 0,
  2, 0, 0, 0, 1, 0, 0, 0, 0, 0, 14, 0,
  24, 0, 20, 0, 16, 0, 12, 0, 11, 0, 4, 0,
  14, 0, 0, 0, 20, 0, 0, 0, 0, 0, 0, 21,
  16, 0, 0, 0, 20, 0, 0, 0, 1, 0, 0, 0,
  196, 255, 255, 255, 1, 0, 0, 0, 6, 0, 0, 0,
  2, 0, 0, 0, 5, 0, 0, 0, 3, 0, 0, 0,
  0, 0, 14, 0, 20, 0, 0, 0, 16, 0, 12, 0,
  11, 0, 4, 0, 14, 0, 0, 0, 20, 0, 0, 0,
  0, 0, 0, 28, 16, 0, 0, 0, 20, 0, 0, 0,
  4, 0, 4, 0, 4, 0, 0, 0, 1, 0, 0, 0,
  5, 0, 0, 0, 2, 0, 0, 0, 0, 0, 0, 0,
  4, 0, 0, 0, 1, 0, 0, 0, 8, 0, 0, 0,
  1, 0, 0, 0, 0, 0, 0, 0, 9, 0, 0, 0,
  0, 4, 0, 0, 136, 3, 0, 0, 12, 3, 0, 0,
  168, 2, 0, 0, 68, 2, 0, 0, 192, 1, 0, 0,
  20, 1, 0, 0, 128, 0, 0, 0, 4, 0, 0, 0,
  58, 252, 255, 255, 0, 0, 0, 1, 24, 0, 0, 0,
  32, 0, 0, 0, 60, 0, 0, 0, 9, 0, 0, 0,
  0, 0, 0, 9, 80, 0, 0, 0, 2, 0, 0, 0,
  255, 255, 255, 255, 1, 0, 0, 0, 36, 252, 255, 255,
  8, 0, 0, 0, 16, 0, 0, 0, 1, 0, 0, 0,
  128, 255, 255, 255, 255, 255, 255, 255, 1, 0, 0, 0,
  0, 0, 128, 59, 27, 0, 0, 0, 83, 116, 97, 116,
  101, 102, 117, 108, 80, 97, 114, 116, 105, 116, 105, 111,
  110, 101, 100, 67, 97, 108, 108, 95, 49, 58, 48, 0,
  2, 0, 0, 0, 1, 0, 0, 0, 1, 0, 0, 0,
  178, 252, 255, 255, 0, 0, 0, 1, 24, 0, 0, 0,
  32, 0, 0, 0, 60, 0, 0, 0, 8, 0, 0, 0,
  0, 0, 0, 9, 104, 0, 0, 0, 2, 0, 0, 0,
  255, 255, 255, 255, 1, 0, 0, 0, 156, 252, 255, 255,
  8, 0, 0, 0, 16, 0, 0, 0, 1, 0, 0, 0,
  44, 0, 0, 0, 0, 0, 0, 0, 1, 0, 0, 0,
  230, 2, 59, 61, 50, 0, 0, 0, 102, 117, 110, 99,
  116, 105, 111, 110, 97, 108, 95, 49, 47, 112, 114, 111,
  98, 95, 49, 47, 77, 97, 116, 77, 117, 108, 59, 102,
  117, 110, 99, 116, 105, 111, 110, 97, 108, 95, 49, 47,
  112, 114, 111, 98, 95, 49, 47, 65, 100, 100, 0, 0,
  2, 0, 0, 0, 1, 0, 0, 0, 1, 0, 0, 0,
  66, 253, 255, 255, 0, 0, 0, 1, 24, 0, 0, 0,
  32, 0, 0, 0, 60, 0, 0, 0, 7, 0, 0, 0,
  0, 0, 0, 9, 128, 0, 0, 0, 2, 0, 0, 0,
  255, 255, 255, 255, 4, 0, 0, 0, 44, 253, 255, 255,
  8, 0, 0, 0, 16, 0, 0, 0, 1, 0, 0, 0,
  207, 255, 255, 255, 255, 255, 255, 255, 1, 0, 0, 0,
  10, 77, 177, 60, 73, 0, 0, 0, 102, 117, 110, 99,
  116, 105, 111, 110, 97, 108, 95, 49, 47, 110, 111, 114,
  109, 97, 108, 105, 122, 97, 116, 105, 111, 110, 95, 49,
  47, 116, 114, 117, 101, 100, 105, 118, 59, 102, 117, 110,
  99, 116, 105, 111, 110, 97, 108, 95, 49, 47, 110, 111,
  114, 109, 97, 108, 105, 122, 97, 116, 105, 111, 110, 95,
  49, 47, 77, 97, 120, 105, 109, 117, 109, 0, 0, 0,
  2, 0, 0, 0, 1, 0, 0, 0, 4, 0, 0, 0,
  234, 253, 255, 255, 0, 0, 0, 1, 24, 0, 0, 0,
  32, 0, 0, 0, 60, 0, 0, 0, 6, 0, 0, 0,
  0, 0, 0, 9, 88, 0, 0, 0, 2, 0, 0, 0,
  255, 255, 255, 255, 4, 0, 0, 0, 212, 253, 255, 255,
  8, 0, 0, 0, 16, 0, 0, 0, 1, 0, 0, 0,
  3, 0, 0, 0, 0, 0, 0, 0, 1, 0, 0, 0,
  64, 232, 175, 65, 32, 0, 0, 0, 102, 117, 110, 99,
  116, 105, 111, 110, 97, 108, 95, 49, 47, 110, 111, 114,
  109, 97, 108, 105, 122, 97, 116, 105, 111, 110, 95, 49,
  47, 83, 117, 98, 0, 0, 0, 0, 2, 0, 0, 0,
  1, 0, 0, 0, 4, 0, 0, 0, 222, 254, 255, 255,
  0, 0, 0, 1, 20, 0, 0, 0, 48, 0, 0, 0,
  5, 0, 0, 0, 0, 0, 0, 9, 60, 0, 0, 0,
  68, 254, 255, 255, 8, 0, 0, 0, 16, 0, 0, 0,
  1, 0, 0, 0, 128, 255, 255, 255, 255, 255, 255, 255,
  1, 0, 0, 0, 77, 128, 52, 65, 18, 0, 0, 0,
  116, 102, 108, 46, 112, 115, 101, 117, 100, 111, 95, 113,
  99, 111, 110, 115, 116, 51, 0, 0, 2, 0, 0, 0,
  1, 0, 0, 0, 4, 0, 0, 0, 62, 255, 255, 255,
  0, 0, 0, 1, 20, 0, 0, 0, 48, 0, 0, 0,
  4, 0, 0, 0, 0, 0, 0, 9, 60, 0, 0, 0,
  164, 254, 255, 255, 8, 0, 0, 0, 16, 0, 0, 0,
  1, 0, 0, 0, 128, 255, 255, 255, 255, 255, 255, 255,
  1, 0, 0, 0, 10, 129, 215, 57, 18, 0, 0, 0,
  116, 102, 108, 46, 112, 115, 101, 117, 100, 111, 95, 113,
  99, 111, 110, 115, 116, 50, 0, 0, 2, 0, 0, 0,
  1, 0, 0, 0, 4, 0, 0, 0, 158, 255, 255, 255,
  0, 0, 0, 1, 20, 0, 0, 0, 48, 0, 0, 0,
  3, 0, 0, 0, 0, 0, 0, 9, 60, 0, 0, 0,
  4, 255, 255, 255, 8, 0, 0, 0, 16, 0, 0, 0,
  1, 0, 0, 0, 0, 0, 0, 0, 0, 0, 0, 0,
  1, 0, 0, 0, 125, 238, 128, 60, 18, 0, 0, 0,
  116, 102, 108, 46, 112, 115, 101, 117, 100, 111, 95, 113,
  99, 111, 110, 115, 116, 49, 0, 0, 2, 0, 0, 0,
  1, 0, 0, 0, 4, 0, 0, 0, 0, 0, 22, 0,
  28, 0, 24, 0, 23, 0, 16, 0, 12, 0, 8, 0,
  0, 0, 0, 0, 0, 0, 7, 0, 22, 0, 0, 0,
  0, 0, 0, 1, 20, 0, 0, 0, 48, 0, 0, 0,
  2, 0, 0, 0, 0, 0, 0, 2, 60, 0, 0, 0,
  124, 255, 255, 255, 8, 0, 0, 0, 16, 0, 0, 0,
  1, 0, 0, 0, 0, 0, 0, 0, 0, 0, 0, 0,
  1, 0, 0, 0, 98, 151, 178, 57, 17, 0, 0, 0,
  116, 102, 108, 46, 112, 115, 101, 117, 100, 111, 95, 113,
  99, 111, 110, 115, 116, 0, 0, 0, 1, 0, 0, 0,
  1, 0, 0, 0, 0, 0, 22, 0, 32, 0, 28, 0,
  27, 0, 20, 0, 16, 0, 12, 0, 0, 0, 0, 0,
  8, 0, 7, 0, 22, 0, 0, 0, 0, 0, 0, 1,
  24, 0, 0, 0, 44, 0, 0, 0, 72, 0, 0, 0,
  1, 0, 0, 0, 0, 0, 0, 9, 88, 0, 0, 0,
  2, 0, 0, 0, 255, 255, 255, 255, 4, 0, 0, 0,
  12, 0, 12, 0, 0, 0, 0, 0, 8, 0, 4, 0,
  12, 0, 0, 0, 8, 0, 0, 0, 16, 0, 0, 0,
  1, 0, 0, 0, 128, 255, 255, 255, 255, 255, 255, 255,
  1, 0, 0, 0, 120, 120, 128, 65, 23, 0, 0, 0,
  115, 101, 114, 118, 105, 110, 103, 95, 100, 101, 102, 97,
  117, 108, 116, 95, 105, 110, 112, 117, 116, 58, 48, 0,
  2, 0, 0, 0, 1, 0, 0, 0, 4, 0, 0, 0,
  4, 0, 0, 0, 76, 0, 0, 0, 44, 0, 0, 0,
  24, 0, 0, 0, 4, 0, 0, 0, 208, 255, 255, 255,
  14, 0, 0, 0, 2, 0, 0, 0, 0, 0, 0, 14,
  224, 255, 255, 255, 9, 0, 0, 0, 4, 0, 0, 0,
  0, 0, 0, 9, 240, 255, 255, 255, 18, 0, 0, 0,
  2, 0, 0, 0, 0, 0, 0, 18, 12, 0, 16, 0,
  15, 0, 0, 0, 8, 0, 4, 0, 12, 0, 0, 0,
  41, 0, 0, 0, 2, 0, 0, 0, 0, 0, 0, 41,
};

#endif // FIRE_LOGISTIC_INT8_H
